0187
035D
01D1
0407
3E2C
3C4E
3FE1
3940
3F06
0187
028A
0002
023E
3D22
3B98
006D
3B51
002D
3DA5
3FFF
3EFC
0000
3FFE
3F25
3FD3
3E6E
0087
3B3A
3DF4
088C
022E
00DC
3C3F
0317
03F1
3BF3
0187
39A3
0883
370C
0515
3D08
08BE
3F24
02E6
08A8
0493
3379
023B
09DB
0426
3AD5
390E
0270
005A
00CC
002B
00C2
00E5
005D
0041
0085
000E
0040
0114
00BF
0079
00D2
00A7
0063
00AD
0042
3F25
3F52
3FA5
3E3A
3DC1
3E41
3F7E
3F4F
3F01
00E6
0100
3FEA
02C1
032E
01A9
01BC
022E
0160
3F30
3F3C
001A
3DBA
3D7E
3EC6
3E55
3DFC
3ED1
3FFA
3FD3
0003
3F7D
3F45
3FA0
3FCB
3F9D
3FBC
38E8
34DD
3909
023B
3FF7
00B2
06CB
091B
0579
3842
34FB
3A5D
0106
02A9
00BD
05A3
09DC
0453
3BD6
37F5
3CA2
01B8
01A8
00BE
0328
057A
031C
1553
02E3
3367
0F08
3C7B
310C
0718
3CFA
2E67
3570
3D1B
0627
3D42
3FC8
08E9
3FDA
01EB
055B
32A3
3E2B
055B
3269
01BF
0AE3
39A4
03FB
0CBF
073B
0F0A
021C
3F04
043C
394B
3A01
3906
37E6
041E
0D4E
00D2
3F3B
060E
3A17
3AD1
3A97
3825
02BD
0670
0268
3E65
0213
3E05
3CF4
3C43
3CE6
3E4F
3B3E
0162
3E54
38AD
3F0A
00C7
0101
3FB2
0160
3BFF
0150
3FD9
39FF
3FCC
3F15
0102
3EC6
00D7
3EA1
01B5
3F51
3ACB
0031
3F9A
0151
3E11
392B
0184
0A19
39DE
3304
1031
0384
32DA
079D
3EC2
3EC1
05A0
0274
308F
08E5
0BAB
3587
3FC7
0205
3F81
3E2C
0549
393A
3EA3
09C8
3DFA
3B1F
399D
3E39
062B
36CC
3F8F
09AC
3968
02A9
064C
3A87
3EEC
052D
375A
3FA5
08BD
3A7A
02AC
041A
3CAB
0032
02EC
3A49
0099
050E
3B78
02B9
026E
05BD
094B
058B
3F7D
0007
3FE8
3A98
37F5
39AE
04D2
090A
042C
3F2B
001D
001D
3B4D
3868
3AD1
02E9
054E
020B
3FC2
00BB
00A0
3CC2
3AE8
3CB8
0563
0002
3A5C
0920
3D9D
3828
0648
3F9B
3BC5
05E6
0044
39EC
0963
3DCA
37A3
04DF
0000
3C30
0393
0104
3BB2
065C
3F44
39B6
03E0
00AF
3C07
3DE6
3DBE
3D6A
3D22
3C2F
3D1A
3EF3
3C55
3F07
01B3
01F2
003F
013B
00BF
00A7
0122
3FB9
00F4
0144
0230
00FE
0126
015A
0201
0122
00F0
021E
01ED
036D
0266
3CCE
35A1
368D
0151
052D
08D2
029B
0515
03D0
3CCE
3526
3575
00B9
0496
07EA
026F
0398
02E4
3E6E
3933
38EB
0000
01A5
04D2
3903
360B
3ACD
0184
3FD6
3FC1
0627
09D8
052E
3A92
36E5
3BB4
0249
003A
0026
0425
087B
0368
3BE7
398C
3C9C
0223
0089
001B
02F1
05F4
026E
0025
00CC
0067
3EFB
3EAF
001D
3FDA
3E6D
3F38
3ECF
3E9F
3D90
3E2B
3DE6
3F25
3EDA
3DD1
3EFF
01D4
0217
0014
0229
030C
0274
0182
023E
0205

